unsigned char model_tflite[] = {
  0x1c, 0x00, 0x00, 0x00, 0x54, 0x46, 0x4c, 0x33, 0x14, 0x00, 0x20, 0x00,
  0x1c, 0x00, 0x18, 0x00, 0x14, 0x00, 0x10, 0x00, 0x0c, 0x00, 0x00, 0x00,
  0x08, 0x00, 0x04, 0x00, 0x14, 0x00, 0x00, 0x00, 0x1c, 0x00, 0x00, 0x00,
  0x8c, 0x00, 0x00, 0x00, 0xe4, 0x00, 0x00, 0x00, 0x10, 0x07, 0x00, 0x00,
  0x20, 0x07, 0x00, 0x00, 0xa4, 0x0c, 0x00, 0x00, 0x03, 0x00, 0x00, 0x00,
  0x01, 0x00, 0x00, 0x00, 0x04, 0x00, 0x00, 0x00, 0xa2, 0xf8, 0xff, 0xff,
  0x0c, 0x00, 0x00, 0x00, 0x1c, 0x00, 0x00, 0x00, 0x3c, 0x00, 0x00, 0x00,
  0x0f, 0x00, 0x00, 0x00, 0x73, 0x65, 0x72, 0x76, 0x69, 0x6e, 0x67, 0x5f,
  0x64, 0x65, 0x66, 0x61, 0x75, 0x6c, 0x74, 0x00, 0x01, 0x00, 0x00, 0x00,
  0x04, 0x00, 0x00, 0x00, 0x90, 0xff, 0xff, 0xff, 0x0a, 0x00, 0x00, 0x00,
  0x04, 0x00, 0x00, 0x00, 0x08, 0x00, 0x00, 0x00, 0x6f, 0x75, 0x74, 0x70,
  0x75, 0x74, 0x5f, 0x30, 0x00, 0x00, 0x00, 0x00, 0x01, 0x00, 0x00, 0x00,
  0x04, 0x00, 0x00, 0x00, 0x92, 0xf9, 0xff, 0xff, 0x04, 0x00, 0x00, 0x00,
  0x0c, 0x00, 0x00, 0x00, 0x6b, 0x65, 0x72, 0x61, 0x73, 0x5f, 0x74, 0x65,
  0x6e, 0x73, 0x6f, 0x72, 0x00, 0x00, 0x00, 0x00, 0x02, 0x00, 0x00, 0x00,
  0x34, 0x00, 0x00, 0x00, 0x04, 0x00, 0x00, 0x00, 0xdc, 0xff, 0xff, 0xff,
  0x0d, 0x00, 0x00, 0x00, 0x04, 0x00, 0x00, 0x00, 0x13, 0x00, 0x00, 0x00,
  0x43, 0x4f, 0x4e, 0x56, 0x45, 0x52, 0x53, 0x49, 0x4f, 0x4e, 0x5f, 0x4d,
  0x45, 0x54, 0x41, 0x44, 0x41, 0x54, 0x41, 0x00, 0x08, 0x00, 0x0c, 0x00,
  0x08, 0x00, 0x04, 0x00, 0x08, 0x00, 0x00, 0x00, 0x0c, 0x00, 0x00, 0x00,
  0x04, 0x00, 0x00, 0x00, 0x13, 0x00, 0x00, 0x00, 0x6d, 0x69, 0x6e, 0x5f,
  0x72, 0x75, 0x6e, 0x74, 0x69, 0x6d, 0x65, 0x5f, 0x76, 0x65, 0x72, 0x73,
  0x69, 0x6f, 0x6e, 0x00, 0x0e, 0x00, 0x00, 0x00, 0x28, 0x06, 0x00, 0x00,
  0x20, 0x06, 0x00, 0x00, 0xf0, 0x05, 0x00, 0x00, 0xd8, 0x03, 0x00, 0x00,
  0xc4, 0x03, 0x00, 0x00, 0x94, 0x03, 0x00, 0x00, 0x44, 0x03, 0x00, 0x00,
  0xb4, 0x00, 0x00, 0x00, 0xac, 0x00, 0x00, 0x00, 0xa4, 0x00, 0x00, 0x00,
  0x9c, 0x00, 0x00, 0x00, 0x94, 0x00, 0x00, 0x00, 0x74, 0x00, 0x00, 0x00,
  0x04, 0x00, 0x00, 0x00, 0x46, 0xfa, 0xff, 0xff, 0x04, 0x00, 0x00, 0x00,
  0x60, 0x00, 0x00, 0x00, 0x10, 0x00, 0x00, 0x00, 0x00, 0x00, 0x00, 0x00,
  0x08, 0x00, 0x0e, 0x00, 0x08, 0x00, 0x04, 0x00, 0x08, 0x00, 0x00, 0x00,
  0x10, 0x00, 0x00, 0x00, 0x24, 0x00, 0x00, 0x00, 0x00, 0x00, 0x06, 0x00,
  0x08, 0x00, 0x04, 0x00, 0x06, 0x00, 0x00, 0x00, 0x04, 0x00, 0x00, 0x00,
  0x00, 0x00, 0x00, 0x00, 0x0c, 0x00, 0x18, 0x00, 0x14, 0x00, 0x10, 0x00,
  0x0c, 0x00, 0x04, 0x00, 0x0c, 0x00, 0x00, 0x00, 0x09, 0xee, 0x89, 0x2f,
  0x91, 0x18, 0x71, 0x31, 0x02, 0x00, 0x00, 0x00, 0x02, 0x00, 0x00, 0x00,
  0x04, 0x00, 0x00, 0x00, 0x06, 0x00, 0x00, 0x00, 0x32, 0x2e, 0x31, 0x38,
  0x2e, 0x30, 0x00, 0x00, 0xb2, 0xfa, 0xff, 0xff, 0x04, 0x00, 0x00, 0x00,
  0x10, 0x00, 0x00, 0x00, 0x31, 0x2e, 0x31, 0x34, 0x2e, 0x30, 0x00, 0x00,
  0x00, 0x00, 0x00, 0x00, 0x00, 0x00, 0x00, 0x00, 0x30, 0xf5, 0xff, 0xff,
  0x34, 0xf5, 0xff, 0xff, 0x38, 0xf5, 0xff, 0xff, 0x3c, 0xf5, 0xff, 0xff,
  0xde, 0xfa, 0xff, 0xff, 0x04, 0x00, 0x00, 0x00, 0x80, 0x02, 0x00, 0x00,
  0x36, 0xf3, 0xf5, 0x3e, 0x04, 0x13, 0x11, 0xbf, 0x80, 0x1c, 0x10, 0x3f,
  0x9a, 0x27, 0xa8, 0x3e, 0xbc, 0xea, 0xb9, 0x3e, 0x3a, 0xa6, 0x1c, 0xbe,
  0x53, 0xc4, 0x04, 0x3e, 0x29, 0x5a, 0xce, 0xbe, 0xf8, 0x92, 0x88, 0x3e,
  0xa9, 0x85, 0x09, 0x3e, 0x87, 0xd9, 0x1d, 0xbc, 0x3c, 0x02, 0x31, 0x3d,
  0x15, 0xe9, 0xb4, 0xbe, 0x18, 0xcc, 0xe5, 0xbe, 0xbb, 0x52, 0x0b, 0xbe,
  0x24, 0x51, 0x8a, 0x3f, 0x3a, 0x7a, 0x0b, 0xbf, 0xbe, 0x58, 0x84, 0xbe,
  0x75, 0xcb, 0x00, 0x3f, 0x40, 0xc0, 0xae, 0x3d, 0x71, 0x80, 0xb8, 0xbe,
  0x96, 0x40, 0x8d, 0xbe, 0x1d, 0xdc, 0xa9, 0x3e, 0xf0, 0xed, 0xf0, 0xbd,
  0x8c, 0xa2, 0xc2, 0x3e, 0xae, 0xb2, 0xe2, 0x3e, 0xf2, 0x6c, 0xa2, 0x3c,
  0x4b, 0x33, 0xd3, 0xbe, 0xdb, 0xb4, 0x96, 0xbe, 0x2f, 0x6e, 0xd3, 0xbe,
  0x2c, 0xc1, 0x56, 0x3d, 0xf2, 0xf9, 0x00, 0x3f, 0xe7, 0xbb, 0x84, 0xbe,
  0xa4, 0x1b, 0x34, 0x3e, 0xcc, 0xa1, 0x2f, 0x3e, 0x50, 0x80, 0xc2, 0x3e,
  0x3b, 0xdb, 0x04, 0x3e, 0xe1, 0x24, 0x29, 0x3e, 0x55, 0x7d, 0xda, 0x3e,
  0x50, 0x0b, 0xc6, 0x3e, 0xe4, 0xdf, 0xca, 0x3e, 0xbc, 0xac, 0xd1, 0x3d,
  0xf1, 0x20, 0xbb, 0xbe, 0x61, 0x5c, 0xd2, 0x3e, 0xa5, 0xce, 0xc6, 0x3e,
  0xe9, 0x12, 0xe2, 0x3e, 0x20, 0x4e, 0x99, 0x3e, 0x17, 0x6c, 0x20, 0x3f,
  0x69, 0x7e, 0x82, 0x3e, 0xa9, 0xd3, 0xe8, 0x3e, 0x58, 0xa1, 0x13, 0xbf,
  0x3a, 0xbc, 0x51, 0x3e, 0x6d, 0xae, 0xc3, 0xbe, 0x05, 0x4e, 0x32, 0x3e,
  0x12, 0xe4, 0xdd, 0x3d, 0xed, 0x5e, 0xe9, 0x3d, 0xbb, 0xa2, 0x82, 0x3e,
  0x71, 0x4c, 0x08, 0x3f, 0xf8, 0xcd, 0x84, 0x3e, 0x6a, 0x8c, 0x21, 0x3f,
  0x4a, 0x0a, 0x28, 0xbf, 0xab, 0x59, 0x05, 0x3f, 0xb1, 0x5a, 0x54, 0x3e,
  0x4f, 0x6b, 0x9a, 0x3e, 0xcf, 0xa1, 0xa8, 0xbe, 0x0d, 0x61, 0x47, 0xbe,
  0x19, 0xea, 0x94, 0x3e, 0x61, 0x06, 0x27, 0xbf, 0x55, 0x0a, 0x0f, 0x3f,
  0x9d, 0xe7, 0x12, 0x3d, 0x6c, 0xc2, 0x00, 0x3e, 0x40, 0xda, 0xee, 0x3c,
  0xcf, 0x95, 0xf3, 0xbe, 0xe0, 0xcc, 0x4f, 0x3c, 0xec, 0x4d, 0xc6, 0xbe,
  0xa6, 0x20, 0x02, 0xbe, 0x86, 0xf2, 0xd4, 0xbe, 0x30, 0x9c, 0xe1, 0x3e,
  0xc4, 0x8d, 0x57, 0xbe, 0x46, 0xdd, 0x11, 0xbe, 0x9e, 0x0e, 0x26, 0xbf,
  0x80, 0x50, 0x23, 0x3f, 0x4d, 0x6f, 0x8b, 0x3e, 0x85, 0xbe, 0x23, 0xbf,
  0x5e, 0xdd, 0x1a, 0x3e, 0x9a, 0x4b, 0x91, 0x3e, 0x9d, 0x09, 0xf9, 0xbd,
  0x82, 0x72, 0x03, 0x3f, 0x7e, 0x4d, 0x3b, 0xbf, 0x04, 0xb3, 0xa5, 0x3e,
  0xd2, 0xae, 0x57, 0xbe, 0x7a, 0x66, 0x47, 0x3f, 0x10, 0x25, 0x06, 0xbe,
  0xc6, 0x21, 0x62, 0xbd, 0xd3, 0x78, 0xf3, 0x3d, 0xd1, 0x8c, 0x19, 0x3e,
  0xff, 0xc3, 0xd5, 0xbe, 0x27, 0xfa, 0x20, 0x3f, 0x3f, 0x68, 0xe7, 0x3e,
  0xd9, 0xe1, 0xaa, 0xbd, 0x71, 0xdf, 0xf1, 0x3a, 0xe5, 0xba, 0x1b, 0x3e,
  0x22, 0xbc, 0x2d, 0xbd, 0xd7, 0x97, 0x11, 0x3f, 0xeb, 0x6b, 0x05, 0xbf,
  0x44, 0xca, 0x04, 0x3f, 0x1f, 0x7b, 0x23, 0xbf, 0x2a, 0xb2, 0x2f, 0x3f,
  0x62, 0xb4, 0x2c, 0xbf, 0x39, 0xd8, 0xd7, 0x3d, 0x98, 0xa7, 0x45, 0x3f,
  0xd2, 0xf6, 0x25, 0xbf, 0x80, 0x58, 0x3e, 0x3e, 0xb6, 0xe3, 0x26, 0xbf,
  0xde, 0x3c, 0xbf, 0x3e, 0x96, 0xb2, 0x63, 0xbf, 0xf2, 0xe6, 0xc0, 0x3e,
  0x9b, 0xe7, 0x6d, 0x3c, 0xd2, 0xa5, 0x6b, 0x3e, 0xfb, 0xec, 0xb2, 0x3d,
  0xca, 0xa8, 0xcd, 0x3c, 0x5b, 0x9f, 0x2c, 0x3f, 0x99, 0xc4, 0x02, 0xbe,
  0xe4, 0x64, 0xec, 0x3d, 0x38, 0x87, 0x83, 0xbd, 0x56, 0xf0, 0xc5, 0x3e,
  0xe4, 0xe1, 0x88, 0xbe, 0xe6, 0xd2, 0x00, 0x3f, 0xf5, 0xbb, 0xa7, 0x3e,
  0xce, 0x21, 0xbd, 0x3d, 0x2b, 0x8d, 0x85, 0xbe, 0x84, 0xb4, 0xff, 0x3e,
  0x44, 0x6a, 0x80, 0xbf, 0x6d, 0xcc, 0x35, 0x3f, 0x80, 0x2b, 0x2c, 0x3e,
  0xee, 0x82, 0x80, 0xbd, 0xf6, 0x91, 0x97, 0xbe, 0xa1, 0x54, 0xde, 0x3e,
  0xef, 0x1e, 0x4d, 0xbd, 0x5a, 0xf2, 0x3f, 0xbe, 0x59, 0x3c, 0x3d, 0x3f,
  0x88, 0x93, 0x6a, 0xbe, 0xd9, 0x3c, 0x50, 0x3f, 0x55, 0x8c, 0x1d, 0xbd,
  0xe9, 0xa7, 0x81, 0xbd, 0x4a, 0x4f, 0x0c, 0x3e, 0xa1, 0xa3, 0x44, 0x3f,
  0x12, 0xe9, 0x32, 0x3e, 0xbe, 0xd8, 0xbf, 0x3d, 0xa5, 0x05, 0x02, 0x3f,
  0xda, 0x2a, 0xaa, 0xbe, 0x02, 0xc4, 0x3f, 0x3e, 0xdf, 0xf1, 0xe1, 0x3e,
  0x65, 0xc6, 0x24, 0xbd, 0x86, 0xa3, 0x27, 0x3d, 0x15, 0x81, 0xeb, 0xbc,
  0x03, 0x9f, 0xdd, 0xbe, 0xcf, 0xf5, 0x1b, 0xbe, 0xcc, 0xfa, 0xb0, 0xbe,
  0x6a, 0x75, 0x04, 0x3e, 0x6a, 0xfd, 0xff, 0xff, 0x04, 0x00, 0x00, 0x00,
  0x40, 0x00, 0x00, 0x00, 0x10, 0xf4, 0xd6, 0xbe, 0x33, 0xba, 0xf2, 0x3c,
  0xba, 0xcc, 0x5a, 0x3d, 0xf9, 0x7d, 0x85, 0xbe, 0x97, 0xc5, 0x32, 0xbf,
  0x43, 0x9a, 0x6c, 0x3e, 0xb7, 0x11, 0x9b, 0xbd, 0x00, 0x00, 0x00, 0x00,
  0x4a, 0x57, 0x2f, 0xbd, 0x98, 0x21, 0x87, 0x3c, 0x67, 0x7d, 0xd9, 0xbd,
  0x46, 0x72, 0xfc, 0x3d, 0xb5, 0xab, 0x13, 0xbe, 0xcd, 0xde, 0x3f, 0x3c,
  0x96, 0x38, 0x12, 0xbf, 0x49, 0x25, 0x01, 0xbd, 0xb6, 0xfd, 0xff, 0xff,
  0x04, 0x00, 0x00, 0x00, 0x20, 0x00, 0x00, 0x00, 0xa0, 0xc5, 0x03, 0x3e,
  0x35, 0x58, 0xd0, 0xbd, 0xad, 0x1e, 0xdb, 0xbe, 0x41, 0xe8, 0x8a, 0xbe,
  0x5f, 0x01, 0xba, 0xbd, 0x43, 0xbf, 0x37, 0x3e, 0xf6, 0x9d, 0x10, 0x3d,
  0x2d, 0x07, 0x4c, 0xbe, 0xe2, 0xfd, 0xff, 0xff, 0x04, 0x00, 0x00, 0x00,
  0x04, 0x00, 0x00, 0x00, 0x1c, 0xbe, 0x64, 0xbd, 0xf2, 0xfd, 0xff, 0xff,
  0x04, 0x00, 0x00, 0x00, 0x00, 0x02, 0x00, 0x00, 0x0c, 0x08, 0xec, 0xbb,
  0x81, 0xa6, 0xaa, 0x3f, 0x9e, 0xd1, 0x0a, 0x3f, 0x5f, 0xd5, 0xa3, 0x3d,
  0x68, 0x43, 0xa1, 0x3e, 0xf8, 0x7f, 0xc9, 0xbe, 0x5e, 0x23, 0xf5, 0x3f,
  0xec, 0x6a, 0xfe, 0x3e, 0x5c, 0xff, 0xdc, 0x3f, 0xa8, 0x31, 0x59, 0x3e,
  0xb5, 0x9e, 0x07, 0x40, 0x78, 0xff, 0x83, 0x3f, 0xa7, 0xd8, 0x22, 0xbf,
  0x62, 0x14, 0xdf, 0x3f, 0x2a, 0xf0, 0x48, 0x3e, 0x66, 0xab, 0x04, 0x3f,
  0x8a, 0x27, 0xf9, 0x3d, 0xb1, 0x41, 0x0f, 0x3e, 0x60, 0x7f, 0x89, 0x3e,
  0x1c, 0xf8, 0x47, 0xbe, 0xb4, 0xfa, 0xfc, 0xbe, 0x7c, 0xf6, 0x87, 0xbe,
  0x31, 0x9a, 0xf0, 0xbd, 0xf0, 0xe7, 0xdc, 0x3d, 0x15, 0x7a, 0x38, 0xbe,
  0x5e, 0x29, 0x1d, 0x3e, 0xff, 0xe3, 0xce, 0x3e, 0x04, 0xf9, 0x9e, 0x3e,
  0x88, 0xfb, 0xc9, 0xbe, 0x9c, 0x34, 0x81, 0x3e, 0x0c, 0x14, 0xf9, 0xbe,
  0x98, 0x3b, 0x06, 0xbe, 0x1f, 0xde, 0x65, 0x3f, 0xdf, 0x96, 0x19, 0x3f,
  0x8c, 0x94, 0xaa, 0xbe, 0xe0, 0x90, 0x22, 0x3c, 0x8c, 0xeb, 0x19, 0x3f,
  0x44, 0xf0, 0xd1, 0xbe, 0x85, 0xcd, 0xec, 0x3f, 0x54, 0x56, 0x84, 0x3e,
  0xc5, 0xba, 0x48, 0x3f, 0x66, 0x88, 0x0e, 0xbf, 0x60, 0x1d, 0xc8, 0x3f,
  0x74, 0x87, 0xba, 0x3f, 0xb2, 0x1b, 0x8d, 0xbe, 0x3c, 0x94, 0x92, 0x3f,
  0x4d, 0x4d, 0x0b, 0x3f, 0xc4, 0x33, 0xa0, 0x3e, 0x2c, 0x73, 0xc3, 0xbd,
  0x1b, 0xd6, 0xba, 0xbf, 0xcc, 0x0c, 0x8d, 0x3e, 0xf9, 0x46, 0x25, 0x3f,
  0xc0, 0xc8, 0x12, 0x3f, 0xda, 0x56, 0xb5, 0x3e, 0xd4, 0xa2, 0x9d, 0xbf,
  0xc0, 0x18, 0xa1, 0x3d, 0x35, 0xc7, 0xc5, 0xbf, 0x22, 0x99, 0x98, 0x3e,
  0x6a, 0x10, 0xb2, 0xbf, 0xc0, 0xb8, 0xdc, 0xbf, 0x94, 0xd0, 0xeb, 0x3e,
  0x40, 0x00, 0xc3, 0xbf, 0x9e, 0xe7, 0x03, 0x3f, 0x75, 0x69, 0x85, 0x3e,
  0xbc, 0x9d, 0xa6, 0xbe, 0xa7, 0x0a, 0x86, 0xbe, 0xed, 0x70, 0xd0, 0x3e,
  0x00, 0x1b, 0xeb, 0xbe, 0xec, 0xbe, 0xae, 0xbe, 0x51, 0xdc, 0xff, 0x3d,
  0x0f, 0x01, 0xde, 0xbe, 0x20, 0x76, 0x54, 0x3d, 0x8d, 0x29, 0xfa, 0xbd,
  0x8d, 0x15, 0x29, 0xbe, 0xc9, 0x4f, 0x42, 0x3e, 0xa7, 0x66, 0x4f, 0xbe,
  0x3c, 0x28, 0x5e, 0xbd, 0x30, 0x92, 0xa1, 0x3d, 0xfb, 0xdc, 0x5a, 0x3e,
  0xc9, 0xf6, 0xf6, 0xbe, 0x5c, 0xaa, 0xc8, 0x3e, 0x29, 0x99, 0x7a, 0x3f,
  0x8a, 0x5d, 0x08, 0x3f, 0x07, 0xf2, 0xec, 0xbd, 0x36, 0x7c, 0xc3, 0xbe,
  0xc5, 0xb6, 0xd8, 0x3e, 0x36, 0x9c, 0x94, 0x3f, 0x30, 0x78, 0x8a, 0x3e,
  0x1a, 0x97, 0xcd, 0x3f, 0x50, 0x34, 0xf1, 0xbe, 0x0e, 0x0d, 0xc8, 0x3f,
  0x84, 0xf0, 0xca, 0x3f, 0xb4, 0x9e, 0x07, 0xbf, 0x4b, 0x87, 0xe9, 0x3f,
  0x57, 0x99, 0x14, 0x3f, 0x05, 0x89, 0xaa, 0x3c, 0xae, 0xbc, 0xed, 0x3e,
  0x51, 0x37, 0xb0, 0x3f, 0x32, 0x8c, 0x71, 0xbe, 0xd8, 0x38, 0xad, 0xbd,
  0xd2, 0x71, 0x01, 0xbe, 0x22, 0x73, 0x42, 0x3e, 0xd6, 0xd2, 0xc6, 0x3f,
  0x50, 0xa3, 0xd0, 0xbd, 0x50, 0xd7, 0xdb, 0x3f, 0x08, 0x3c, 0x6f, 0xbe,
  0x09, 0xe5, 0x94, 0x3f, 0x01, 0x1f, 0xe0, 0x3f, 0x21, 0x9c, 0xd8, 0xbd,
  0x1e, 0xa7, 0xd6, 0x3f, 0xf1, 0x1c, 0xd5, 0x3d, 0x56, 0x99, 0xec, 0xbd,
  0xcd, 0xff, 0xc1, 0x3d, 0x96, 0xdb, 0xf9, 0xbf, 0xbd, 0x4b, 0xbe, 0x3e,
  0x28, 0xd7, 0x41, 0xbd, 0xad, 0x62, 0xc0, 0x3e, 0x11, 0xe2, 0xd7, 0x3e,
  0x88, 0xdf, 0xde, 0xbf, 0xf0, 0xf5, 0xa9, 0xbe, 0x9e, 0x33, 0x07, 0xc0,
  0xe6, 0x9f, 0x05, 0x3f, 0xc0, 0xba, 0x24, 0xc0, 0xa6, 0x7e, 0xce, 0xbf,
  0x89, 0x83, 0x3e, 0x3f, 0x3b, 0xdf, 0xfa, 0xbf, 0x6d, 0x58, 0xa2, 0x3e,
  0x66, 0x62, 0x8f, 0x3e, 0x00, 0x00, 0x06, 0x00, 0x08, 0x00, 0x04, 0x00,
  0x06, 0x00, 0x00, 0x00, 0x04, 0x00, 0x00, 0x00, 0x20, 0x00, 0x00, 0x00,
  0xc5, 0xdd, 0xd8, 0x3f, 0x5c, 0xcc, 0x39, 0xbf, 0x8c, 0x8a, 0x1d, 0x40,
  0x48, 0x32, 0x6c, 0xbf, 0x86, 0x1c, 0x06, 0xbf, 0x88, 0xd3, 0xe2, 0x3f,
  0x61, 0x7f, 0xb0, 0x3f, 0xe0, 0x99, 0x98, 0xbf, 0x94, 0xfa, 0xff, 0xff,
  0x98, 0xfa, 0xff, 0xff, 0x0f, 0x00, 0x00, 0x00, 0x4d, 0x4c, 0x49, 0x52,
  0x20, 0x43, 0x6f, 0x6e, 0x76, 0x65, 0x72, 0x74, 0x65, 0x64, 0x2e, 0x00,
  0x01, 0x00, 0x00, 0x00, 0x14, 0x00, 0x00, 0x00, 0x00, 0x00, 0x0e, 0x00,
  0x18, 0x00, 0x14, 0x00, 0x10, 0x00, 0x0c, 0x00, 0x08, 0x00, 0x04, 0x00,
  0x0e, 0x00, 0x00, 0x00, 0x14, 0x00, 0x00, 0x00, 0x1c, 0x00, 0x00, 0x00,
  0x08, 0x01, 0x00, 0x00, 0x0c, 0x01, 0x00, 0x00, 0x10, 0x01, 0x00, 0x00,
  0x04, 0x00, 0x00, 0x00, 0x6d, 0x61, 0x69, 0x6e, 0x00, 0x00, 0x00, 0x00,
  0x04, 0x00, 0x00, 0x00, 0xb0, 0x00, 0x00, 0x00, 0x68, 0x00, 0x00, 0x00,
  0x34, 0x00, 0x00, 0x00, 0x10, 0x00, 0x00, 0x00, 0x00, 0x00, 0x0a, 0x00,
  0x10, 0x00, 0x0c, 0x00, 0x08, 0x00, 0x04, 0x00, 0x0a, 0x00, 0x00, 0x00,
  0x0c, 0x00, 0x00, 0x00, 0x10, 0x00, 0x00, 0x00, 0x01, 0x00, 0x00, 0x00,
  0x01, 0x00, 0x00, 0x00, 0x0a, 0x00, 0x00, 0x00, 0x01, 0x00, 0x00, 0x00,
  0x09, 0x00, 0x00, 0x00, 0x9a, 0xff, 0xff, 0xff, 0x10, 0x00, 0x00, 0x00,
  0x00, 0x00, 0x00, 0x08, 0x0c, 0x00, 0x00, 0x00, 0x10, 0x00, 0x00, 0x00,
  0x40, 0xfb, 0xff, 0xff, 0x01, 0x00, 0x00, 0x00, 0x09, 0x00, 0x00, 0x00,
  0x03, 0x00, 0x00, 0x00, 0x08, 0x00, 0x00, 0x00, 0x01, 0x00, 0x00, 0x00,
  0x03, 0x00, 0x00, 0x00, 0xca, 0xff, 0xff, 0xff, 0x10, 0x00, 0x00, 0x00,
  0x00, 0x00, 0x00, 0x08, 0x10, 0x00, 0x00, 0x00, 0x14, 0x00, 0x00, 0x00,
  0xba, 0xff, 0xff, 0xff, 0x00, 0x00, 0x00, 0x01, 0x01, 0x00, 0x00, 0x00,
  0x08, 0x00, 0x00, 0x00, 0x03, 0x00, 0x00, 0x00, 0x07, 0x00, 0x00, 0x00,
  0x02, 0x00, 0x00, 0x00, 0x04, 0x00, 0x00, 0x00, 0x00, 0x00, 0x0e, 0x00,
  0x16, 0x00, 0x00, 0x00, 0x10, 0x00, 0x0c, 0x00, 0x0b, 0x00, 0x04, 0x00,
  0x0e, 0x00, 0x00, 0x00, 0x18, 0x00, 0x00, 0x00, 0x00, 0x00, 0x00, 0x08,
  0x18, 0x00, 0x00, 0x00, 0x1c, 0x00, 0x00, 0x00, 0x00, 0x00, 0x06, 0x00,
  0x08, 0x00, 0x07, 0x00, 0x06, 0x00, 0x00, 0x00, 0x00, 0x00, 0x00, 0x01,
  0x01, 0x00, 0x00, 0x00, 0x07, 0x00, 0x00, 0x00, 0x03, 0x00, 0x00, 0x00,
  0x00, 0x00, 0x00, 0x00, 0x06, 0x00, 0x00, 0x00, 0x05, 0x00, 0x00, 0x00,
  0x01, 0x00, 0x00, 0x00, 0x0a, 0x00, 0x00, 0x00, 0x01, 0x00, 0x00, 0x00,
  0x00, 0x00, 0x00, 0x00, 0x0b, 0x00, 0x00, 0x00, 0xe8, 0x03, 0x00, 0x00,
  0x90, 0x03, 0x00, 0x00, 0x38, 0x03, 0x00, 0x00, 0xfc, 0x02, 0x00, 0x00,
  0xa4, 0x02, 0x00, 0x00, 0x50, 0x02, 0x00, 0x00, 0x04, 0x02, 0x00, 0x00,
  0x74, 0x01, 0x00, 0x00, 0xdc, 0x00, 0x00, 0x00, 0x60, 0x00, 0x00, 0x00,
  0x04, 0x00, 0x00, 0x00, 0x5a, 0xfc, 0xff, 0xff, 0x00, 0x00, 0x00, 0x01,
  0x14, 0x00, 0x00, 0x00, 0x1c, 0x00, 0x00, 0x00, 0x1c, 0x00, 0x00, 0x00,
  0x0b, 0x00, 0x00, 0x00, 0x34, 0x00, 0x00, 0x00, 0x02, 0x00, 0x00, 0x00,
  0xff, 0xff, 0xff, 0xff, 0x01, 0x00, 0x00, 0x00, 0x44, 0xfc, 0xff, 0xff,
  0x1b, 0x00, 0x00, 0x00, 0x53, 0x74, 0x61, 0x74, 0x65, 0x66, 0x75, 0x6c,
  0x50, 0x61, 0x72, 0x74, 0x69, 0x74, 0x69, 0x6f, 0x6e, 0x65, 0x64, 0x43,
  0x61, 0x6c, 0x6c, 0x5f, 0x31, 0x3a, 0x30, 0x00, 0x02, 0x00, 0x00, 0x00,
  0x01, 0x00, 0x00, 0x00, 0x01, 0x00, 0x00, 0x00, 0xb2, 0xfc, 0xff, 0xff,
  0x00, 0x00, 0x00, 0x01, 0x14, 0x00, 0x00, 0x00, 0x1c, 0x00, 0x00, 0x00,
  0x1c, 0x00, 0x00, 0x00, 0x0a, 0x00, 0x00, 0x00, 0x54, 0x00, 0x00, 0x00,
  0x02, 0x00, 0x00, 0x00, 0xff, 0xff, 0xff, 0xff, 0x01, 0x00, 0x00, 0x00,
  0x9c, 0xfc, 0xff, 0xff, 0x38, 0x00, 0x00, 0x00, 0x73, 0x65, 0x71, 0x75,
  0x65, 0x6e, 0x74, 0x69, 0x61, 0x6c, 0x5f, 0x31, 0x2f, 0x64, 0x65, 0x6e,
  0x73, 0x65, 0x5f, 0x32, 0x5f, 0x31, 0x2f, 0x4d, 0x61, 0x74, 0x4d, 0x75,
  0x6c, 0x3b, 0x73, 0x65, 0x71, 0x75, 0x65, 0x6e, 0x74, 0x69, 0x61, 0x6c,
  0x5f, 0x31, 0x2f, 0x64, 0x65, 0x6e, 0x73, 0x65, 0x5f, 0x32, 0x5f, 0x31,
  0x2f, 0x41, 0x64, 0x64, 0x00, 0x00, 0x00, 0x00, 0x02, 0x00, 0x00, 0x00,
  0x01, 0x00, 0x00, 0x00, 0x01, 0x00, 0x00, 0x00, 0x2a, 0xfd, 0xff, 0xff,
  0x00, 0x00, 0x00, 0x01, 0x14, 0x00, 0x00, 0x00, 0x1c, 0x00, 0x00, 0x00,
  0x1c, 0x00, 0x00, 0x00, 0x09, 0x00, 0x00, 0x00, 0x70, 0x00, 0x00, 0x00,
  0x02, 0x00, 0x00, 0x00, 0xff, 0xff, 0xff, 0xff, 0x08, 0x00, 0x00, 0x00,
  0x14, 0xfd, 0xff, 0xff, 0x54, 0x00, 0x00, 0x00, 0x73, 0x65, 0x71, 0x75,
  0x65, 0x6e, 0x74, 0x69, 0x61, 0x6c, 0x5f, 0x31, 0x2f, 0x64, 0x65, 0x6e,
  0x73, 0x65, 0x5f, 0x31, 0x5f, 0x32, 0x2f, 0x4d, 0x61, 0x74, 0x4d, 0x75,
  0x6c, 0x3b, 0x73, 0x65, 0x71, 0x75, 0x65, 0x6e, 0x74, 0x69, 0x61, 0x6c,
  0x5f, 0x31, 0x2f, 0x64, 0x65, 0x6e, 0x73, 0x65, 0x5f, 0x31, 0x5f, 0x32,
  0x2f, 0x52, 0x65, 0x6c, 0x75, 0x3b, 0x73, 0x65, 0x71, 0x75, 0x65, 0x6e,
  0x74, 0x69, 0x61, 0x6c, 0x5f, 0x31, 0x2f, 0x64, 0x65, 0x6e, 0x73, 0x65,
  0x5f, 0x31, 0x5f, 0x32, 0x2f, 0x41, 0x64, 0x64, 0x00, 0x00, 0x00, 0x00,
  0x02, 0x00, 0x00, 0x00, 0x01, 0x00, 0x00, 0x00, 0x08, 0x00, 0x00, 0x00,
  0xbe, 0xfd, 0xff, 0xff, 0x00, 0x00, 0x00, 0x01, 0x14, 0x00, 0x00, 0x00,
  0x1c, 0x00, 0x00, 0x00, 0x1c, 0x00, 0x00, 0x00, 0x08, 0x00, 0x00, 0x00,
  0x68, 0x00, 0x00, 0x00, 0x02, 0x00, 0x00, 0x00, 0xff, 0xff, 0xff, 0xff,
  0x10, 0x00, 0x00, 0x00, 0xa8, 0xfd, 0xff, 0xff, 0x4e, 0x00, 0x00, 0x00,
  0x73, 0x65, 0x71, 0x75, 0x65, 0x6e, 0x74, 0x69, 0x61, 0x6c, 0x5f, 0x31,
  0x2f, 0x64, 0x65, 0x6e, 0x73, 0x65, 0x5f, 0x31, 0x2f, 0x4d, 0x61, 0x74,
  0x4d, 0x75, 0x6c, 0x3b, 0x73, 0x65, 0x71, 0x75, 0x65, 0x6e, 0x74, 0x69,
  0x61, 0x6c, 0x5f, 0x31, 0x2f, 0x64, 0x65, 0x6e, 0x73, 0x65, 0x5f, 0x31,
  0x2f, 0x52, 0x65, 0x6c, 0x75, 0x3b, 0x73, 0x65, 0x71, 0x75, 0x65, 0x6e,
  0x74, 0x69, 0x61, 0x6c, 0x5f, 0x31, 0x2f, 0x64, 0x65, 0x6e, 0x73, 0x65,
  0x5f, 0x31, 0x2f, 0x41, 0x64, 0x64, 0x00, 0x00, 0x02, 0x00, 0x00, 0x00,
  0x01, 0x00, 0x00, 0x00, 0x10, 0x00, 0x00, 0x00, 0x9e, 0xfe, 0xff, 0xff,
  0x00, 0x00, 0x00, 0x01, 0x10, 0x00, 0x00, 0x00, 0x10, 0x00, 0x00, 0x00,
  0x07, 0x00, 0x00, 0x00, 0x28, 0x00, 0x00, 0x00, 0x24, 0xfe, 0xff, 0xff,
  0x1b, 0x00, 0x00, 0x00, 0x73, 0x65, 0x71, 0x75, 0x65, 0x6e, 0x74, 0x69,
  0x61, 0x6c, 0x5f, 0x31, 0x2f, 0x64, 0x65, 0x6e, 0x73, 0x65, 0x5f, 0x31,
  0x2f, 0x4d, 0x61, 0x74, 0x4d, 0x75, 0x6c, 0x00, 0x02, 0x00, 0x00, 0x00,
  0x10, 0x00, 0x00, 0x00, 0x0a, 0x00, 0x00, 0x00, 0xe6, 0xfe, 0xff, 0xff,
  0x00, 0x00, 0x00, 0x01, 0x10, 0x00, 0x00, 0x00, 0x10, 0x00, 0x00, 0x00,
  0x06, 0x00, 0x00, 0x00, 0x34, 0x00, 0x00, 0x00, 0x6c, 0xfe, 0xff, 0xff,
  0x27, 0x00, 0x00, 0x00, 0x73, 0x65, 0x71, 0x75, 0x65, 0x6e, 0x74, 0x69,
  0x61, 0x6c, 0x5f, 0x31, 0x2f, 0x64, 0x65, 0x6e, 0x73, 0x65, 0x5f, 0x31,
  0x2f, 0x41, 0x64, 0x64, 0x2f, 0x52, 0x65, 0x61, 0x64, 0x56, 0x61, 0x72,
  0x69, 0x61, 0x62, 0x6c, 0x65, 0x4f, 0x70, 0x00, 0x01, 0x00, 0x00, 0x00,
  0x10, 0x00, 0x00, 0x00, 0x36, 0xff, 0xff, 0xff, 0x00, 0x00, 0x00, 0x01,
  0x10, 0x00, 0x00, 0x00, 0x10, 0x00, 0x00, 0x00, 0x05, 0x00, 0x00, 0x00,
  0x38, 0x00, 0x00, 0x00, 0xbc, 0xfe, 0xff, 0xff, 0x29, 0x00, 0x00, 0x00,
  0x73, 0x65, 0x71, 0x75, 0x65, 0x6e, 0x74, 0x69, 0x61, 0x6c, 0x5f, 0x31,
  0x2f, 0x64, 0x65, 0x6e, 0x73, 0x65, 0x5f, 0x31, 0x5f, 0x32, 0x2f, 0x41,
  0x64, 0x64, 0x2f, 0x52, 0x65, 0x61, 0x64, 0x56, 0x61, 0x72, 0x69, 0x61,
  0x62, 0x6c, 0x65, 0x4f, 0x70, 0x00, 0x00, 0x00, 0x01, 0x00, 0x00, 0x00,
  0x08, 0x00, 0x00, 0x00, 0x8a, 0xff, 0xff, 0xff, 0x00, 0x00, 0x00, 0x01,
  0x10, 0x00, 0x00, 0x00, 0x10, 0x00, 0x00, 0x00, 0x04, 0x00, 0x00, 0x00,
  0x1c, 0x00, 0x00, 0x00, 0x10, 0xff, 0xff, 0xff, 0x0f, 0x00, 0x00, 0x00,
  0x61, 0x72, 0x69, 0x74, 0x68, 0x2e, 0x63, 0x6f, 0x6e, 0x73, 0x74, 0x61,
  0x6e, 0x74, 0x32, 0x00, 0x01, 0x00, 0x00, 0x00, 0x01, 0x00, 0x00, 0x00,
  0xc2, 0xff, 0xff, 0xff, 0x00, 0x00, 0x00, 0x01, 0x10, 0x00, 0x00, 0x00,
  0x10, 0x00, 0x00, 0x00, 0x03, 0x00, 0x00, 0x00, 0x1c, 0x00, 0x00, 0x00,
  0x48, 0xff, 0xff, 0xff, 0x0f, 0x00, 0x00, 0x00, 0x61, 0x72, 0x69, 0x74,
  0x68, 0x2e, 0x63, 0x6f, 0x6e, 0x73, 0x74, 0x61, 0x6e, 0x74, 0x31, 0x00,
  0x02, 0x00, 0x00, 0x00, 0x08, 0x00, 0x00, 0x00, 0x10, 0x00, 0x00, 0x00,
  0x00, 0x00, 0x16, 0x00, 0x18, 0x00, 0x14, 0x00, 0x00, 0x00, 0x10, 0x00,
  0x0c, 0x00, 0x08, 0x00, 0x00, 0x00, 0x00, 0x00, 0x00, 0x00, 0x07, 0x00,
  0x16, 0x00, 0x00, 0x00, 0x00, 0x00, 0x00, 0x01, 0x10, 0x00, 0x00, 0x00,
  0x10, 0x00, 0x00, 0x00, 0x02, 0x00, 0x00, 0x00, 0x1c, 0x00, 0x00, 0x00,
  0x9c, 0xff, 0xff, 0xff, 0x0e, 0x00, 0x00, 0x00, 0x61, 0x72, 0x69, 0x74,
  0x68, 0x2e, 0x63, 0x6f, 0x6e, 0x73, 0x74, 0x61, 0x6e, 0x74, 0x00, 0x00,
  0x02, 0x00, 0x00, 0x00, 0x01, 0x00, 0x00, 0x00, 0x08, 0x00, 0x00, 0x00,
  0x00, 0x00, 0x16, 0x00, 0x1c, 0x00, 0x18, 0x00, 0x00, 0x00, 0x14, 0x00,
  0x10, 0x00, 0x0c, 0x00, 0x00, 0x00, 0x00, 0x00, 0x08, 0x00, 0x07, 0x00,
  0x16, 0x00, 0x00, 0x00, 0x00, 0x00, 0x00, 0x01, 0x14, 0x00, 0x00, 0x00,
  0x20, 0x00, 0x00, 0x00, 0x20, 0x00, 0x00, 0x00, 0x01, 0x00, 0x00, 0x00,
  0x3c, 0x00, 0x00, 0x00, 0x02, 0x00, 0x00, 0x00, 0xff, 0xff, 0xff, 0xff,
  0x0a, 0x00, 0x00, 0x00, 0x04, 0x00, 0x04, 0x00, 0x04, 0x00, 0x00, 0x00,
  0x1e, 0x00, 0x00, 0x00, 0x73, 0x65, 0x72, 0x76, 0x69, 0x6e, 0x67, 0x5f,
  0x64, 0x65, 0x66, 0x61, 0x75, 0x6c, 0x74, 0x5f, 0x6b, 0x65, 0x72, 0x61,
  0x73, 0x5f, 0x74, 0x65, 0x6e, 0x73, 0x6f, 0x72, 0x3a, 0x30, 0x00, 0x00,
  0x02, 0x00, 0x00, 0x00, 0x01, 0x00, 0x00, 0x00, 0x0a, 0x00, 0x00, 0x00,
  0x02, 0x00, 0x00, 0x00, 0x20, 0x00, 0x00, 0x00, 0x04, 0x00, 0x00, 0x00,
  0xf4, 0xff, 0xff, 0xff, 0x0e, 0x00, 0x00, 0x00, 0x00, 0x00, 0x00, 0x0e,
  0x0c, 0x00, 0x0c, 0x00, 0x0b, 0x00, 0x00, 0x00, 0x00, 0x00, 0x04, 0x00,
  0x0c, 0x00, 0x00, 0x00, 0x09, 0x00, 0x00, 0x00, 0x00, 0x00, 0x00, 0x09
};
unsigned int model_tflite_len = 3336;
